/*
 * Copyright 2019 The TensorFlow Authors. All Rights Reserved.
 *
 * Licensed under the Apache License, Version 2.0 (the "License");
 * you may not use this file except in compliance with the License.
 * You may obtain a copy of the License at
 *
 *     http://www.apache.org/licenses/LICENSE-2.0
 *
 * Unless required by applicable law or agreed to in writing, software
 * distributed under the License is distributed on an "AS IS" BASIS,
 * WITHOUT WARRANTIES OR CONDITIONS OF ANY KIND, either express or implied.
 * See the License for the specific language governing permissions and
 * limitations under the License.
 */

/* Automatically created from a TensorFlow Lite flatbuffer using the command:
 * xxd -i magic_wand_model.tflite > magic_wand_model_data.cc
 * See the README for a full description of the creation process.
 */

#include "magic_wand_model_data.h"

/* Keep model aligned to 8 bytes to guarantee aligned 64-bit accesses. */
alignas(8) const unsigned char g_magic_wand_model_data[] = {
  0x20, 0x00, 0x00, 0x00, 0x54, 0x46, 0x4c, 0x33, 0x00, 0x00, 0x00, 0x00,
  0x14, 0x00, 0x20, 0x00, 0x04, 0x00, 0x08, 0x00, 0x0c, 0x00, 0x10, 0x00,
  0x14, 0x00, 0x00, 0x00, 0x18, 0x00, 0x1c, 0x00, 0x14, 0x00, 0x00, 0x00,
  0x03, 0x00, 0x00, 0x00, 0x18, 0x00, 0x00, 0x00, 0x38, 0x00, 0x00, 0x00,
  0x5c, 0x01, 0x00, 0x00, 0x38, 0x00, 0x00, 0x00, 0x04, 0x01, 0x00, 0x00,
  0x84, 0x00, 0x00, 0x00, 0x08, 0x00, 0x00, 0x00, 0xd8, 0x08, 0x00, 0x00,
  0x08, 0x08, 0x00, 0x00, 0xf4, 0x06, 0x00, 0x00, 0x04, 0x06, 0x00, 0x00,
  0x18, 0x05, 0x00, 0x00, 0x30, 0x04, 0x00, 0x00, 0xa0, 0x02, 0x00, 0x00,
  0x18, 0x02, 0x00, 0x00, 0x01, 0x00, 0x00, 0x00, 0x48, 0x01, 0x00, 0x00,
  0x14, 0x00, 0x00, 0x00, 0x9c, 0x13, 0x00, 0x00, 0x98, 0x13, 0x00, 0x00,
  0xb0, 0x12, 0x00, 0x00, 0x34, 0x12, 0x00, 0x00, 0xc8, 0x10, 0x00, 0x00,
  0xf4, 0x0f, 0x00, 0x00, 0x84, 0x0a, 0x00, 0x00, 0x10, 0x0a, 0x00, 0x00,
  0x94, 0x09, 0x00, 0x00, 0x28, 0x09, 0x00, 0x00, 0x74, 0x13, 0x00, 0x00,
  0x70, 0x13, 0x00, 0x00, 0x6c, 0x13, 0x00, 0x00, 0x68, 0x13, 0x00, 0x00,
  0x64, 0x13, 0x00, 0x00, 0x60, 0x13, 0x00, 0x00, 0x5c, 0x13, 0x00, 0x00,
  0x58, 0x13, 0x00, 0x00, 0x54, 0x13, 0x00, 0x00, 0xb4, 0x00, 0x00, 0x00,
  0x01, 0x00, 0x00, 0x00, 0x10, 0x00, 0x00, 0x00, 0x00, 0x00, 0x0a, 0x00,
  0x10, 0x00, 0x0c, 0x00, 0x08, 0x00, 0x04, 0x00, 0x0a, 0x00, 0x00, 0x00,
  0x0c, 0x00, 0x00, 0x00, 0x1c, 0x00, 0x00, 0x00, 0x20, 0x00, 0x00, 0x00,
  0x0f, 0x00, 0x00, 0x00, 0x73, 0x65, 0x72, 0x76, 0x69, 0x6e, 0x67, 0x5f,
  0x64, 0x65, 0x66, 0x61, 0x75, 0x6c, 0x74, 0x00, 0x01, 0x00, 0x00, 0x00,
  0x14, 0x00, 0x00, 0x00, 0x01, 0x00, 0x00, 0x00, 0x24, 0x00, 0x00, 0x00,
  0x08, 0x00, 0x0c, 0x00, 0x08, 0x00, 0x04, 0x00, 0x08, 0x00, 0x00, 0x00,
  0x11, 0x00, 0x00, 0x00, 0x04, 0x00, 0x00, 0x00, 0x07, 0x00, 0x00, 0x00,
  0x64, 0x65, 0x6e, 0x73, 0x65, 0x5f, 0x31, 0x00, 0x06, 0xee, 0xff, 0xff,
  0x04, 0x00, 0x00, 0x00, 0x07, 0x00, 0x00, 0x00, 0x69, 0x6e, 0x70, 0x75,
  0x74, 0x5f, 0x31, 0x00, 0x01, 0x00, 0x00, 0x00, 0x0c, 0x00, 0x00, 0x00,
  0x08, 0x00, 0x0c, 0x00, 0x04, 0x00, 0x08, 0x00, 0x08, 0x00, 0x00, 0x00,
  0x08, 0x00, 0x00, 0x00, 0x13, 0x00, 0x00, 0x00, 0x13, 0x00, 0x00, 0x00,
  0x6d, 0x69, 0x6e, 0x5f, 0x72, 0x75, 0x6e, 0x74, 0x69, 0x6d, 0x65, 0x5f,
  0x76, 0x65, 0x72, 0x73, 0x69, 0x6f, 0x6e, 0x00, 0x4e, 0xee, 0xff, 0xff,
  0x04, 0x00, 0x00, 0x00, 0x10, 0x00, 0x00, 0x00, 0x31, 0x2e, 0x31, 0x34,
  0x2e, 0x30, 0x00, 0x00, 0x00, 0x00, 0x00, 0x00, 0x00, 0x00, 0x00, 0x00,
  0x0f, 0x00, 0x00, 0x00, 0x4d, 0x4c, 0x49, 0x52, 0x20, 0x43, 0x6f, 0x6e,
  0x76, 0x65, 0x72, 0x74, 0x65, 0x64, 0x2e, 0x00, 0x00, 0x00, 0x0e, 0x00,
  0x18, 0x00, 0x04, 0x00, 0x08, 0x00, 0x0c, 0x00, 0x10, 0x00, 0x14, 0x00,
  0x0e, 0x00, 0x00, 0x00, 0x14, 0x00, 0x00, 0x00, 0x5c, 0x00, 0x00, 0x00,
  0x60, 0x00, 0x00, 0x00, 0x64, 0x00, 0x00, 0x00, 0x88, 0x00, 0x00, 0x00,
  0x12, 0x00, 0x00, 0x00, 0xd8, 0x11, 0x00, 0x00, 0x7c, 0x11, 0x00, 0x00,
  0xec, 0x10, 0x00, 0x00, 0xdc, 0x0f, 0x00, 0x00, 0xc8, 0x0e, 0x00, 0x00,
  0x38, 0x0e, 0x00, 0x00, 0xd4, 0x08, 0x00, 0x00, 0x4c, 0x08, 0x00, 0x00,
  0xe0, 0x07, 0x00, 0x00, 0x50, 0x07, 0x00, 0x00, 0x6c, 0x06, 0x00, 0x00,
  0x58, 0x05, 0x00, 0x00, 0x68, 0x04, 0x00, 0x00, 0x7c, 0x03, 0x00, 0x00,
  0x94, 0x02, 0x00, 0x00, 0xb0, 0x01, 0x00, 0x00, 0x00, 0x01, 0x00, 0x00,
  0x78, 0x00, 0x00, 0x00, 0x01, 0x00, 0x00, 0x00, 0x00, 0x00, 0x00, 0x00,
  0x01, 0x00, 0x00, 0x00, 0x11, 0x00, 0x00, 0x00, 0x09, 0x00, 0x00, 0x00,
  0xcc, 0x06, 0x00, 0x00, 0xf4, 0x05, 0x00, 0x00, 0xc4, 0x04, 0x00, 0x00,
  0xd0, 0x03, 0x00, 0x00, 0x10, 0x03, 0x00, 0x00, 0x0c, 0x02, 0x00, 0x00,
  0x44, 0x01, 0x00, 0x00, 0x98, 0x00, 0x00, 0x00, 0x10, 0x00, 0x00, 0x00,
  0x04, 0x00, 0x00, 0x00, 0x6d, 0x61, 0x69, 0x6e, 0x00, 0x00, 0x00, 0x00,
  0x1a, 0xfd, 0xff, 0xff, 0x07, 0x00, 0x00, 0x00, 0x10, 0x00, 0x00, 0x00,
  0x04, 0x00, 0x00, 0x00, 0x01, 0x00, 0x00, 0x00, 0x11, 0x00, 0x00, 0x00,
  0x01, 0x00, 0x00, 0x00, 0x10, 0x00, 0x00, 0x00, 0x68, 0xf9, 0xff, 0xff,
  0x06, 0x00, 0x00, 0x00, 0x00, 0x00, 0x00, 0x06, 0x02, 0x00, 0x00, 0x00,
  0xf8, 0xee, 0xff, 0xff, 0x14, 0x00, 0x00, 0x00, 0x12, 0x00, 0x00, 0x00,
  0x18, 0x00, 0x00, 0x00, 0x40, 0x00, 0x00, 0x00, 0x30, 0x00, 0x00, 0x00,
  0x02, 0x00, 0x00, 0x00, 0x01, 0x00, 0x00, 0x00, 0x01, 0x00, 0x00, 0x00,
  0x19, 0x00, 0x00, 0x00, 0x53, 0x74, 0x61, 0x74, 0x65, 0x66, 0x75, 0x6c,
  0x50, 0x61, 0x72, 0x74, 0x69, 0x74, 0x69, 0x6f, 0x6e, 0x65, 0x64, 0x43,
  0x61, 0x6c, 0x6c, 0x3a, 0x30, 0x00, 0x00, 0x00, 0x02, 0x00, 0x00, 0x00,
  0xff, 0xff, 0xff, 0xff, 0x01, 0x00, 0x00, 0x00, 0xd0, 0xee, 0xff, 0xff,
  0x9e, 0xfd, 0xff, 0xff, 0x06, 0x00, 0x00, 0x00, 0x10, 0x00, 0x00, 0x00,
  0x04, 0x00, 0x00, 0x00, 0x01, 0x00, 0x00, 0x00, 0x10, 0x00, 0x00, 0x00,
  0x01, 0x00, 0x00, 0x00, 0x0f, 0x00, 0x00, 0x00, 0xec, 0xf9, 0xff, 0xff,
  0x0e, 0x00, 0x00, 0x00, 0x00, 0x00, 0x00, 0x0e, 0x02, 0x00, 0x00, 0x00,
  0xe0, 0xf9, 0xff, 0xff, 0x00, 0x00, 0x00, 0x09, 0x14, 0x00, 0x00, 0x00,
  0x11, 0x00, 0x00, 0x00, 0x18, 0x00, 0x00, 0x00, 0x40, 0x00, 0x00, 0x00,
  0x30, 0x00, 0x00, 0x00, 0x02, 0x00, 0x00, 0x00, 0x01, 0x00, 0x00, 0x00,
  0x01, 0x00, 0x00, 0x00, 0x1a, 0x00, 0x00, 0x00, 0x53, 0x74, 0x61, 0x74,
  0x65, 0x66, 0x75, 0x6c, 0x50, 0x61, 0x72, 0x74, 0x69, 0x74, 0x69, 0x6f,
  0x6e, 0x65, 0x64, 0x43, 0x61, 0x6c, 0x6c, 0x3a, 0x30, 0x31, 0x00, 0x00,
  0x02, 0x00, 0x00, 0x00, 0xff, 0xff, 0xff, 0xff, 0x01, 0x00, 0x00, 0x00,
  0x6c, 0xf0, 0xff, 0xff, 0x08, 0x00, 0x00, 0x00, 0x0c, 0x00, 0x00, 0x00,
  0x01, 0x00, 0x00, 0x00, 0x00, 0x00, 0x80, 0x3b, 0x01, 0x00, 0x00, 0x00,
  0x80, 0xff, 0xff, 0xff, 0xff, 0xff, 0xff, 0xff, 0x00, 0x00, 0x00, 0x00,
  0x72, 0xfb, 0xff, 0xff, 0x00, 0x00, 0x00, 0x08, 0x05, 0x00, 0x00, 0x00,
  0x18, 0x00, 0x00, 0x00, 0x0c, 0x00, 0x00, 0x00, 0x04, 0x00, 0x00, 0x00,
  0x94, 0xef, 0xff, 0xff, 0x01, 0x00, 0x00, 0x00, 0x0f, 0x00, 0x00, 0x00,
  0x03, 0x00, 0x00, 0x00, 0x0e, 0x00, 0x00, 0x00, 0x07, 0x00, 0x00, 0x00,
  0x08, 0x00, 0x00, 0x00, 0x8c, 0xfa, 0xff, 0xff, 0x00, 0x00, 0x00, 0x09,
  0x14, 0x00, 0x00, 0x00, 0x10, 0x00, 0x00, 0x00, 0x18, 0x00, 0x00, 0x00,
  0x5c, 0x00, 0x00, 0x00, 0x4c, 0x00, 0x00, 0x00, 0x02, 0x00, 0x00, 0x00,
  0x01, 0x00, 0x00, 0x00, 0x01, 0x00, 0x00, 0x00, 0x34, 0x00, 0x00, 0x00,
  0x73, 0x65, 0x71, 0x75, 0x65, 0x6e, 0x74, 0x69, 0x61, 0x6c, 0x2f, 0x64,
  0x65, 0x6e, 0x73, 0x65, 0x5f, 0x31, 0x2f, 0x4d, 0x61, 0x74, 0x4d, 0x75,
  0x6c, 0x3b, 0x73, 0x65, 0x71, 0x75, 0x65, 0x6e, 0x74, 0x69, 0x61, 0x6c,
  0x2f, 0x64, 0x65, 0x6e, 0x73, 0x65, 0x5f, 0x31, 0x2f, 0x42, 0x69, 0x61,
  0x73, 0x41, 0x64, 0x64, 0x00, 0x00, 0x00, 0x00, 0x02, 0x00, 0x00, 0x00,
  0xff, 0xff, 0xff, 0xff, 0x01, 0x00, 0x00, 0x00, 0x34, 0xf1, 0xff, 0xff,
  0x08, 0x00, 0x00, 0x00, 0x0c, 0x00, 0x00, 0x00, 0x01, 0x00, 0x00, 0x00,
  0x54, 0x6e, 0x6a, 0x3e, 0x01, 0x00, 0x00, 0x00, 0x79, 0x00, 0x00, 0x00,
  0x00, 0x00, 0x00, 0x00, 0x52, 0xfe, 0xff, 0xff, 0x00, 0x00, 0x00, 0x08,
  0x05, 0x00, 0x00, 0x00, 0x24, 0x00, 0x00, 0x00, 0x18, 0x00, 0x00, 0x00,
  0x0c, 0x00, 0x00, 0x00, 0x00, 0x00, 0x06, 0x00, 0x08, 0x00, 0x07, 0x00,
  0x06, 0x00, 0x00, 0x00, 0x00, 0x00, 0x00, 0x01, 0x01, 0x00, 0x00, 0x00,
  0x0e, 0x00, 0x00, 0x00, 0x03, 0x00, 0x00, 0x00, 0x0d, 0x00, 0x00, 0x00,
  0x05, 0x00, 0x00, 0x00, 0x06, 0x00, 0x00, 0x00, 0x78, 0xfb, 0xff, 0xff,
  0x09, 0x00, 0x00, 0x00, 0x00, 0x00, 0x00, 0x09, 0x04, 0x00, 0x00, 0x00,
  0x6c, 0xfb, 0xff, 0xff, 0x00, 0x00, 0x00, 0x09, 0x14, 0x00, 0x00, 0x00,
  0x0f, 0x00, 0x00, 0x00, 0x18, 0x00, 0x00, 0x00, 0x6c, 0x00, 0x00, 0x00,
  0x5c, 0x00, 0x00, 0x00, 0x02, 0x00, 0x00, 0x00, 0x01, 0x00, 0x00, 0x00,
  0x04, 0x00, 0x00, 0x00, 0x46, 0x00, 0x00, 0x00, 0x73, 0x65, 0x71, 0x75,
  0x65, 0x6e, 0x74, 0x69, 0x61, 0x6c, 0x2f, 0x64, 0x65, 0x6e, 0x73, 0x65,
  0x2f, 0x4d, 0x61, 0x74, 0x4d, 0x75, 0x6c, 0x3b, 0x73, 0x65, 0x71, 0x75,
  0x65, 0x6e, 0x74, 0x69, 0x61, 0x6c, 0x2f, 0x64, 0x65, 0x6e, 0x73, 0x65,
  0x2f, 0x52, 0x65, 0x6c, 0x75, 0x3b, 0x73, 0x65, 0x71, 0x75, 0x65, 0x6e,
  0x74, 0x69, 0x61, 0x6c, 0x2f, 0x64, 0x65, 0x6e, 0x73, 0x65, 0x2f, 0x42,
  0x69, 0x61, 0x73, 0x41, 0x64, 0x64, 0x00, 0x00, 0x02, 0x00, 0x00, 0x00,
  0xff, 0xff, 0xff, 0xff, 0x04, 0x00, 0x00, 0x00, 0x24, 0xf2, 0xff, 0xff,
  0x08, 0x00, 0x00, 0x00, 0x0c, 0x00, 0x00, 0x00, 0x01, 0x00, 0x00, 0x00,
  0x36, 0x82, 0x0d, 0x3e, 0x01, 0x00, 0x00, 0x00, 0x80, 0xff, 0xff, 0xff,
  0xff, 0xff, 0xff, 0xff, 0x00, 0x00, 0x00, 0x00, 0x00, 0x00, 0x0a, 0x00,
  0x10, 0x00, 0x04, 0x00, 0x08, 0x00, 0x0c, 0x00, 0x0a, 0x00, 0x00, 0x00,
  0x04, 0x00, 0x00, 0x00, 0x10, 0x00, 0x00, 0x00, 0x04, 0x00, 0x00, 0x00,
  0x01, 0x00, 0x00, 0x00, 0x0d, 0x00, 0x00, 0x00, 0x02, 0x00, 0x00, 0x00,
  0x0c, 0x00, 0x00, 0x00, 0x01, 0x00, 0x00, 0x00, 0x5c, 0xfc, 0xff, 0xff,
  0x16, 0x00, 0x00, 0x00, 0x00, 0x00, 0x00, 0x16, 0x01, 0x00, 0x00, 0x00,
  0x50, 0xfc, 0xff, 0xff, 0x00, 0x00, 0x00, 0x09, 0x14, 0x00, 0x00, 0x00,
  0x0e, 0x00, 0x00, 0x00, 0x18, 0x00, 0x00, 0x00, 0x40, 0x00, 0x00, 0x00,
  0x30, 0x00, 0x00, 0x00, 0x02, 0x00, 0x00, 0x00, 0x01, 0x00, 0x00, 0x00,
  0x40, 0x01, 0x00, 0x00, 0x1a, 0x00, 0x00, 0x00, 0x73, 0x65, 0x71, 0x75,
  0x65, 0x6e, 0x74, 0x69, 0x61, 0x6c, 0x2f, 0x66, 0x6c, 0x61, 0x74, 0x74,
  0x65, 0x6e, 0x2f, 0x52, 0x65, 0x73, 0x68, 0x61, 0x70, 0x65, 0x00, 0x00,
  0x02, 0x00, 0x00, 0x00, 0xff, 0xff, 0xff, 0xff, 0x40, 0x01, 0x00, 0x00,
  0xdc, 0xf2, 0xff, 0xff, 0x08, 0x00, 0x00, 0x00, 0x0c, 0x00, 0x00, 0x00,
  0x01, 0x00, 0x00, 0x00, 0x75, 0xed, 0x7f, 0x3d, 0x01, 0x00, 0x00, 0x00,
  0x80, 0xff, 0xff, 0xff, 0xff, 0xff, 0xff, 0xff, 0x00, 0x00, 0x00, 0x00,
  0x00, 0x00, 0x0e, 0x00, 0x1a, 0x00, 0x08, 0x00, 0x0c, 0x00, 0x10, 0x00,
  0x07, 0x00, 0x14, 0x00, 0x0e, 0x00, 0x00, 0x00, 0x00, 0x00, 0x00, 0x05,
  0x03, 0x00, 0x00, 0x00, 0x3c, 0x00, 0x00, 0x00, 0x30, 0x00, 0x00, 0x00,
  0x14, 0x00, 0x00, 0x00, 0x00, 0x00, 0x0e, 0x00, 0x18, 0x00, 0x17, 0x00,
  0x10, 0x00, 0x0c, 0x00, 0x08, 0x00, 0x04, 0x00, 0x0e, 0x00, 0x00, 0x00,
  0x03, 0x00, 0x00, 0x00, 0x03, 0x00, 0x00, 0x00, 0x03, 0x00, 0x00, 0x00,
  0x03, 0x00, 0x00, 0x00, 0x00, 0x00, 0x00, 0x01, 0x01, 0x00, 0x00, 0x00,
  0x0c, 0x00, 0x00, 0x00, 0x01, 0x00, 0x00, 0x00, 0x0b, 0x00, 0x00, 0x00,
  0x44, 0xfd, 0xff, 0xff, 0x11, 0x00, 0x00, 0x00, 0x00, 0x00, 0x00, 0x11,
  0x02, 0x00, 0x00, 0x00, 0x38, 0xfd, 0xff, 0xff, 0x00, 0x00, 0x00, 0x09,
  0x14, 0x00, 0x00, 0x00, 0x0d, 0x00, 0x00, 0x00, 0x20, 0x00, 0x00, 0x00,
  0x58, 0x00, 0x00, 0x00, 0x40, 0x00, 0x00, 0x00, 0x04, 0x00, 0x00, 0x00,
  0x01, 0x00, 0x00, 0x00, 0x0a, 0x00, 0x00, 0x00, 0x04, 0x00, 0x00, 0x00,
  0x08, 0x00, 0x00, 0x00, 0x20, 0x00, 0x00, 0x00, 0x73, 0x65, 0x71, 0x75,
  0x65, 0x6e, 0x74, 0x69, 0x61, 0x6c, 0x2f, 0x6d, 0x61, 0x78, 0x5f, 0x70,
  0x6f, 0x6f, 0x6c, 0x69, 0x6e, 0x67, 0x32, 0x64, 0x2f, 0x4d, 0x61, 0x78,
  0x50, 0x6f, 0x6f, 0x6c, 0x00, 0x00, 0x00, 0x00, 0x04, 0x00, 0x00, 0x00,
  0xff, 0xff, 0xff, 0xff, 0x0a, 0x00, 0x00, 0x00, 0x04, 0x00, 0x00, 0x00,
  0x08, 0x00, 0x00, 0x00, 0xdc, 0xf3, 0xff, 0xff, 0x08, 0x00, 0x00, 0x00,
  0x0c, 0x00, 0x00, 0x00, 0x01, 0x00, 0x00, 0x00, 0x75, 0xed, 0x7f, 0x3d,
  0x01, 0x00, 0x00, 0x00, 0x80, 0xff, 0xff, 0xff, 0xff, 0xff, 0xff, 0xff,
  0x00, 0x00, 0x00, 0x00, 0xe2, 0xfe, 0xff, 0xff, 0x00, 0x00, 0x00, 0x01,
  0x02, 0x00, 0x00, 0x00, 0x30, 0x00, 0x00, 0x00, 0x24, 0x00, 0x00, 0x00,
  0x10, 0x00, 0x00, 0x00, 0x0c, 0x00, 0x10, 0x00, 0x00, 0x00, 0x04, 0x00,
  0x08, 0x00, 0x0f, 0x00, 0x0c, 0x00, 0x00, 0x00, 0x01, 0x00, 0x00, 0x00,
  0x01, 0x00, 0x00, 0x00, 0x00, 0x00, 0x00, 0x01, 0x01, 0x00, 0x00, 0x00,
  0x0b, 0x00, 0x00, 0x00, 0x03, 0x00, 0x00, 0x00, 0x0a, 0x00, 0x00, 0x00,
  0x03, 0x00, 0x00, 0x00, 0x04, 0x00, 0x00, 0x00, 0x30, 0xfe, 0xff, 0xff,
  0x03, 0x00, 0x00, 0x00, 0x00, 0x00, 0x00, 0x03, 0x03, 0x00, 0x00, 0x00,
  0x24, 0xfe, 0xff, 0xff, 0x00, 0x00, 0x00, 0x09, 0x14, 0x00, 0x00, 0x00,
  0x0c, 0x00, 0x00, 0x00, 0x20, 0x00, 0x00, 0x00, 0x8c, 0x00, 0x00, 0x00,
  0x74, 0x00, 0x00, 0x00, 0x04, 0x00, 0x00, 0x00, 0x01, 0x00, 0x00, 0x00,
  0x20, 0x00, 0x00, 0x00, 0x0d, 0x00, 0x00, 0x00, 0x08, 0x00, 0x00, 0x00,
  0x56, 0x00, 0x00, 0x00, 0x73, 0x65, 0x71, 0x75, 0x65, 0x6e, 0x74, 0x69,
  0x61, 0x6c, 0x2f, 0x63, 0x6f, 0x6e, 0x76, 0x32, 0x64, 0x2f, 0x52, 0x65,
  0x6c, 0x75, 0x3b, 0x73, 0x65, 0x71, 0x75, 0x65, 0x6e, 0x74, 0x69, 0x61,
  0x6c, 0x2f, 0x63, 0x6f, 0x6e, 0x76, 0x32, 0x64, 0x2f, 0x42, 0x69, 0x61,
  0x73, 0x41, 0x64, 0x64, 0x3b, 0x73, 0x65, 0x71, 0x75, 0x65, 0x6e, 0x74,
  0x69, 0x61, 0x6c, 0x2f, 0x63, 0x6f, 0x6e, 0x76, 0x32, 0x64, 0x2f, 0x43,
  0x6f, 0x6e, 0x76, 0x32, 0x44, 0x3b, 0x63, 0x6f, 0x6e, 0x76, 0x32, 0x64,
  0x2f, 0x62, 0x69, 0x61, 0x73, 0x31, 0x00, 0x00, 0x04, 0x00, 0x00, 0x00,
  0xff, 0xff, 0xff, 0xff, 0x20, 0x00, 0x00, 0x00, 0x0d, 0x00, 0x00, 0x00,
  0x08, 0x00, 0x00, 0x00, 0xfc, 0xf4, 0xff, 0xff, 0x08, 0x00, 0x00, 0x00,
  0x0c, 0x00, 0x00, 0x00, 0x01, 0x00, 0x00, 0x00, 0x75, 0xed, 0x7f, 0x3d,
  0x01, 0x00, 0x00, 0x00, 0x80, 0xff, 0xff, 0xff, 0xff, 0xff, 0xff, 0xff,
  0x00, 0x00, 0x0e, 0x00, 0x18, 0x00, 0x08, 0x00, 0x0c, 0x00, 0x10, 0x00,
  0x07, 0x00, 0x14, 0x00, 0x0e, 0x00, 0x00, 0x00, 0x00, 0x00, 0x00, 0x1c,
  0x01, 0x00, 0x00, 0x00, 0x18, 0x00, 0x00, 0x00, 0x0c, 0x00, 0x00, 0x00,
  0x04, 0x00, 0x00, 0x00, 0x30, 0xf4, 0xff, 0xff, 0x01, 0x00, 0x00, 0x00,
  0x0a, 0x00, 0x00, 0x00, 0x02, 0x00, 0x00, 0x00, 0x09, 0x00, 0x00, 0x00,
  0x02, 0x00, 0x00, 0x00, 0x40, 0xff, 0xff, 0xff, 0x29, 0x00, 0x00, 0x00,
  0x00, 0x00, 0x00, 0x29, 0x02, 0x00, 0x00, 0x00, 0x34, 0xff, 0xff, 0xff,
  0x00, 0x00, 0x00, 0x09, 0x14, 0x00, 0x00, 0x00, 0x0b, 0x00, 0x00, 0x00,
  0x20, 0x00, 0x00, 0x00, 0x54, 0x00, 0x00, 0x00, 0x3c, 0x00, 0x00, 0x00,
  0x04, 0x00, 0x00, 0x00, 0x01, 0x00, 0x00, 0x00, 0x20, 0x00, 0x00, 0x00,
  0x0d, 0x00, 0x00, 0x00, 0x01, 0x00, 0x00, 0x00, 0x1c, 0x00, 0x00, 0x00,
  0x73, 0x65, 0x71, 0x75, 0x65, 0x6e, 0x74, 0x69, 0x61, 0x6c, 0x2f, 0x6e,
  0x6f, 0x72, 0x6d, 0x61, 0x6c, 0x69, 0x7a, 0x61, 0x74, 0x69, 0x6f, 0x6e,
  0x2f, 0x73, 0x75, 0x62, 0x00, 0x00, 0x00, 0x00, 0x04, 0x00, 0x00, 0x00,
  0xff, 0xff, 0xff, 0xff, 0x20, 0x00, 0x00, 0x00, 0x0d, 0x00, 0x00, 0x00,
  0x01, 0x00, 0x00, 0x00, 0xd4, 0xf5, 0xff, 0xff, 0x08, 0x00, 0x00, 0x00,
  0x0c, 0x00, 0x00, 0x00, 0x01, 0x00, 0x00, 0x00, 0xae, 0xad, 0x39, 0x40,
  0x01, 0x00, 0x00, 0x00, 0x06, 0x00, 0x00, 0x00, 0x00, 0x00, 0x00, 0x00,
  0x00, 0x00, 0x0a, 0x00, 0x0c, 0x00, 0x00, 0x00, 0x04, 0x00, 0x08, 0x00,
  0x0a, 0x00, 0x00, 0x00, 0x10, 0x00, 0x00, 0x00, 0x04, 0x00, 0x00, 0x00,
  0x01, 0x00, 0x00, 0x00, 0x09, 0x00, 0x00, 0x00, 0x01, 0x00, 0x00, 0x00,
  0x00, 0x00, 0x00, 0x00, 0x0c, 0x00, 0x10, 0x00, 0x0b, 0x00, 0x00, 0x00,
  0x0c, 0x00, 0x04, 0x00, 0x0c, 0x00, 0x00, 0x00, 0x72, 0x00, 0x00, 0x00,
  0x00, 0x00, 0x00, 0x72, 0x01, 0x00, 0x00, 0x00, 0x14, 0x00, 0x1c, 0x00,
  0x08, 0x00, 0x07, 0x00, 0x0c, 0x00, 0x10, 0x00, 0x14, 0x00, 0x00, 0x00,
  0x00, 0x00, 0x18, 0x00, 0x14, 0x00, 0x00, 0x00, 0x00, 0x00, 0x00, 0x09,
  0x14, 0x00, 0x00, 0x00, 0x0a, 0x00, 0x00, 0x00, 0x20, 0x00, 0x00, 0x00,
  0x44, 0x00, 0x00, 0x00, 0x2c, 0x00, 0x00, 0x00, 0x04, 0x00, 0x00, 0x00,
  0x01, 0x00, 0x00, 0x00, 0x20, 0x00, 0x00, 0x00, 0x0d, 0x00, 0x00, 0x00,
  0x01, 0x00, 0x00, 0x00, 0x0c, 0x00, 0x00, 0x00, 0x74, 0x66, 0x6c, 0x2e,
  0x71, 0x75, 0x61, 0x6e, 0x74, 0x69, 0x7a, 0x65, 0x00, 0x00, 0x00, 0x00,
  0x04, 0x00, 0x00, 0x00, 0xff, 0xff, 0xff, 0xff, 0x20, 0x00, 0x00, 0x00,
  0x0d, 0x00, 0x00, 0x00, 0x01, 0x00, 0x00, 0x00, 0xa4, 0xf6, 0xff, 0xff,
  0x08, 0x00, 0x00, 0x00, 0x0c, 0x00, 0x00, 0x00, 0x01, 0x00, 0x00, 0x00,
  0xae, 0xad, 0x39, 0x40, 0x01, 0x00, 0x00, 0x00, 0x06, 0x00, 0x00, 0x00,
  0x00, 0x00, 0x00, 0x00, 0x00, 0x00, 0x00, 0x00, 0x9a, 0xf6, 0xff, 0xff,
  0x04, 0x00, 0x00, 0x00, 0x04, 0x00, 0x00, 0x00, 0x8a, 0x04, 0x00, 0x00,
  0x8e, 0xf6, 0xff, 0xff, 0x00, 0x00, 0x00, 0x02, 0x10, 0x00, 0x00, 0x00,
  0x09, 0x00, 0x00, 0x00, 0x10, 0x00, 0x00, 0x00, 0x20, 0x00, 0x00, 0x00,
  0x01, 0x00, 0x00, 0x00, 0x01, 0x00, 0x00, 0x00, 0x0c, 0x00, 0x00, 0x00,
  0x64, 0x65, 0x6e, 0x73, 0x65, 0x5f, 0x31, 0x2f, 0x62, 0x69, 0x61, 0x73,
  0x00, 0x00, 0x00, 0x00, 0x0c, 0xf7, 0xff, 0xff, 0x08, 0x00, 0x00, 0x00,
  0x0c, 0x00, 0x00, 0x00, 0x01, 0x00, 0x00, 0x00, 0x28, 0xd3, 0x92, 0x3a,
  0x01, 0x00, 0x00, 0x00, 0x00, 0x00, 0x00, 0x00, 0x00, 0x00, 0x00, 0x00,
  0x00, 0x00, 0x00, 0x00, 0x02, 0xf7, 0xff, 0xff, 0x04, 0x00, 0x00, 0x00,
  0x04, 0x00, 0x00, 0x00, 0xa2, 0xbf, 0x81, 0x40, 0xf6, 0xf6, 0xff, 0xff,
  0x00, 0x00, 0x00, 0x09, 0x10, 0x00, 0x00, 0x00, 0x08, 0x00, 0x00, 0x00,
  0x14, 0x00, 0x00, 0x00, 0x30, 0x00, 0x00, 0x00, 0x02, 0x00, 0x00, 0x00,
  0x01, 0x00, 0x00, 0x00, 0x04, 0x00, 0x00, 0x00, 0x19, 0x00, 0x00, 0x00,
  0x73, 0x65, 0x71, 0x75, 0x65, 0x6e, 0x74, 0x69, 0x61, 0x6c, 0x2f, 0x64,
  0x65, 0x6e, 0x73, 0x65, 0x5f, 0x31, 0x2f, 0x4d, 0x61, 0x74, 0x4d, 0x75,
  0x6c, 0x00, 0x00, 0x00, 0x84, 0xf7, 0xff, 0xff, 0x08, 0x00, 0x00, 0x00,
  0x0c, 0x00, 0x00, 0x00, 0x01, 0x00, 0x00, 0x00, 0x07, 0xcf, 0x04, 0x3c,
  0x01, 0x00, 0x00, 0x00, 0x00, 0x00, 0x00, 0x00, 0x00, 0x00, 0x00, 0x00,
  0x00, 0x00, 0x00, 0x00, 0x7a, 0xf7, 0xff, 0xff, 0x04, 0x00, 0x00, 0x00,
  0x10, 0x00, 0x00, 0x00, 0x2c, 0x01, 0x00, 0x00, 0x68, 0x01, 0x00, 0x00,
  0x83, 0x00, 0x00, 0x00, 0xd5, 0xff, 0xff, 0xff, 0x7a, 0xf7, 0xff, 0xff,
  0x00, 0x00, 0x00, 0x02, 0x10, 0x00, 0x00, 0x00, 0x07, 0x00, 0x00, 0x00,
  0x10, 0x00, 0x00, 0x00, 0x1c, 0x00, 0x00, 0x00, 0x01, 0x00, 0x00, 0x00,
  0x04, 0x00, 0x00, 0x00, 0x0a, 0x00, 0x00, 0x00, 0x64, 0x65, 0x6e, 0x73,
  0x65, 0x2f, 0x62, 0x69, 0x61, 0x73, 0x00, 0x00, 0xf4, 0xf7, 0xff, 0xff,
  0x08, 0x00, 0x00, 0x00, 0x0c, 0x00, 0x00, 0x00, 0x01, 0x00, 0x00, 0x00,
  0xd5, 0x2c, 0xc1, 0x39, 0x01, 0x00, 0x00, 0x00, 0x00, 0x00, 0x00, 0x00,
  0x00, 0x00, 0x00, 0x00, 0x00, 0x00, 0x00, 0x00, 0xea, 0xf7, 0xff, 0xff,
  0x04, 0x00, 0x00, 0x00, 0x00, 0x05, 0x00, 0x00, 0x1c, 0x33, 0x3a, 0x1f,
  0x11, 0xfc, 0x17, 0x1a, 0x0b, 0x1c, 0x44, 0xf8, 0x0f, 0x07, 0x1b, 0x32,
  0x20, 0x15, 0x18, 0x23, 0x05, 0xea, 0x19, 0xf9, 0xf8, 0xe8, 0xf4, 0x03,
  0xf5, 0xf5, 0x04, 0xfb, 0x13, 0x2e, 0x2e, 0x2e, 0x23, 0xcc, 0x2c, 0x18,
  0xf4, 0x31, 0x68, 0x10, 0x02, 0xd3, 0x1a, 0x2e, 0x15, 0xfe, 0x03, 0x32,
  0x04, 0xc4, 0x00, 0x08, 0xf1, 0xeb, 0xef, 0xf3, 0x1a, 0xf9, 0x1e, 0x0e,
  0xfd, 0x13, 0x18, 0x22, 0x0d, 0xbd, 0x21, 0x11, 0xf9, 0x27, 0x49, 0xff,
  0x2c, 0xd0, 0x2a, 0x25, 0x3e, 0xfb, 0x0f, 0x0c, 0xe7, 0xf3, 0x11, 0xfe,
  0xf4, 0xf1, 0xe9, 0xf2, 0x04, 0x01, 0x02, 0xea, 0x15, 0x15, 0x21, 0x14,
  0x05, 0xc6, 0x20, 0x1f, 0x08, 0x1b, 0x1a, 0xf8, 0x1b, 0xe0, 0x28, 0x25,
  0x06, 0x08, 0x08, 0x23, 0xe9, 0xd8, 0x1e, 0x29, 0xf5, 0xea, 0xef, 0x06,
  0xfc, 0xf9, 0x0e, 0x0e, 0x0d, 0x2b, 0x34, 0x0b, 0x28, 0xdb, 0x16, 0x15,
  0xfc, 0x13, 0x14, 0x13, 0x2b, 0xdd, 0x2f, 0x26, 0x0a, 0x11, 0x2c, 0x37,
  0xdf, 0xb6, 0x15, 0x19, 0xf0, 0xe5, 0xe6, 0x02, 0xf2, 0x0a, 0x18, 0xf1,
  0x29, 0x32, 0x28, 0x1e, 0x0c, 0xaf, 0x0e, 0x2a, 0x0a, 0x1b, 0x65, 0x19,
  0x32, 0xcf, 0x3d, 0x42, 0x2c, 0x17, 0x24, 0x3e, 0xfc, 0xd4, 0x31, 0x18,
  0xf4, 0xf4, 0xfc, 0xf1, 0xf4, 0xf2, 0xef, 0xed, 0x07, 0x1f, 0x3d, 0x15,
  0x0b, 0xe1, 0x19, 0x13, 0xf5, 0x0d, 0x38, 0x23, 0x19, 0xef, 0x21, 0x22,
  0x22, 0x07, 0x1c, 0x1a, 0xff, 0xdd, 0x36, 0x0f, 0xfb, 0xef, 0xf1, 0xed,
  0xef, 0x02, 0xf7, 0xf6, 0x1e, 0x0f, 0x5c, 0x30, 0x05, 0xee, 0x0a, 0x20,
  0x22, 0x20, 0x24, 0x19, 0x13, 0xec, 0x16, 0x2b, 0x11, 0x14, 0x1d, 0x32,
  0xda, 0xcd, 0x07, 0x10, 0xff, 0xf5, 0xfa, 0xf6, 0x03, 0xdc, 0x0c, 0xfc,
  0x07, 0x1d, 0x6d, 0x13, 0x23, 0xbc, 0x0e, 0x1e, 0x17, 0xff, 0x48, 0x1d,
  0x14, 0xdc, 0x31, 0x36, 0x1b, 0x0b, 0xfd, 0x23, 0xe0, 0xe1, 0x1c, 0x0d,
  0x01, 0xfb, 0xfa, 0xee, 0x09, 0x03, 0x11, 0x02, 0x1f, 0x1f, 0x21, 0x25,
  0x23, 0xc7, 0x09, 0x34, 0x1c, 0x2c, 0x49, 0x24, 0x15, 0xf8, 0x3d, 0x45,
  0x1d, 0x00, 0x10, 0x1c, 0x07, 0xd8, 0x18, 0x0c, 0xf0, 0xe2, 0xe7, 0xee,
  0xfc, 0xf4, 0xf1, 0xfa, 0x1e, 0x33, 0x1f, 0x19, 0x28, 0xf6, 0x0e, 0x21,
  0x10, 0x03, 0x50, 0x0d, 0x17, 0x0f, 0x12, 0x2d, 0x31, 0x0e, 0x24, 0x2f,
  0x04, 0xe8, 0x22, 0x21, 0xee, 0xe4, 0xe4, 0xec, 0x00, 0xfb, 0x0b, 0xea,
  0x12, 0x10, 0x33, 0x2d, 0x36, 0x0e, 0x1c, 0x3c, 0x0c, 0x2d, 0x7f, 0x08,
  0x0e, 0xef, 0x37, 0x46, 0x2d, 0x1f, 0x03, 0x4c, 0xf7, 0xc4, 0x23, 0x00,
  0xef, 0xef, 0xe7, 0xe3, 0xf5, 0xdf, 0x14, 0x0a, 0x2d, 0x36, 0x2e, 0x21,
  0x33, 0xce, 0x19, 0x26, 0xeb, 0x1d, 0x70, 0xfa, 0x14, 0xb0, 0x43, 0x45,
  0x46, 0x05, 0xfe, 0x22, 0xdd, 0xcd, 0x29, 0x18, 0x0a, 0xe6, 0x03, 0xdb,
  0xeb, 0xf8, 0xfb, 0xcf, 0x09, 0x15, 0x3c, 0x26, 0x23, 0xc4, 0x29, 0x1a,
  0x02, 0x06, 0x49, 0x16, 0x2e, 0xe3, 0x2a, 0x15, 0x18, 0x12, 0x2d, 0x35,
  0xe0, 0xf1, 0x2d, 0x18, 0xf4, 0xf0, 0xfa, 0xeb, 0xf7, 0xe9, 0x15, 0x0b,
  0x2c, 0x33, 0x22, 0x0e, 0x0e, 0xb4, 0x13, 0x36, 0x2c, 0xf5, 0x2e, 0x1f,
  0x29, 0xdd, 0x1e, 0x37, 0x35, 0x11, 0x14, 0x34, 0xe8, 0xbb, 0x2f, 0x26,
  0xe8, 0xed, 0xe5, 0xed, 0x10, 0xf4, 0x28, 0x05, 0x0b, 0x0c, 0xf6, 0x0b,
  0x29, 0x99, 0x31, 0x15, 0x23, 0x04, 0x56, 0x0e, 0x1a, 0xdb, 0x3a, 0x36,
  0x47, 0x22, 0x20, 0x46, 0xfb, 0xe0, 0x20, 0x05, 0xfd, 0xe1, 0xfc, 0xf3,
  0xf6, 0xf1, 0xfe, 0xff, 0x0d, 0x2e, 0x1a, 0x1d, 0x27, 0xf4, 0x05, 0x2a,
  0x15, 0x23, 0x1a, 0x0c, 0x2f, 0xf7, 0x34, 0x23, 0x25, 0x2e, 0x3a, 0x1d,
  0xe3, 0xb0, 0x45, 0x19, 0xf7, 0xf4, 0xe2, 0xe7, 0x10, 0x0c, 0x19, 0xed,
  0x03, 0x31, 0x5d, 0x21, 0x24, 0xf4, 0x0e, 0x42, 0x1f, 0x19, 0x34, 0xfd,
  0x0c, 0xef, 0x49, 0x54, 0x1f, 0x09, 0x1b, 0x46, 0xe5, 0xad, 0x21, 0x0b,
  0x08, 0xf2, 0xe2, 0xfe, 0xf3, 0xf6, 0x05, 0xee, 0x06, 0x2f, 0x4c, 0x08,
  0x23, 0xbb, 0x17, 0x44, 0x08, 0x22, 0x38, 0x1d, 0x11, 0xd4, 0x35, 0x46,
  0x27, 0x10, 0x05, 0x18, 0xf8, 0xd5, 0x1a, 0x2a, 0xf5, 0xeb, 0xe9, 0xf6,
  0x12, 0xee, 0x1b, 0x0f, 0x07, 0x0a, 0x02, 0x27, 0x33, 0xca, 0x2f, 0x15,
  0x1b, 0x16, 0x5b, 0x09, 0x30, 0xd6, 0x21, 0x52, 0x2d, 0x0e, 0x0c, 0x1f,
  0x1e, 0x9e, 0x0e, 0x03, 0xfe, 0xdd, 0xdd, 0xf9, 0xfe, 0xd8, 0xf1, 0xed,
  0xf6, 0x00, 0xfc, 0xfa, 0x03, 0xdc, 0x1f, 0x20, 0x11, 0x1c, 0x11, 0x13,
  0xf7, 0xf8, 0x14, 0x03, 0x1d, 0x0c, 0x08, 0x1a, 0x19, 0xf9, 0xff, 0xfa,
  0xf9, 0xf2, 0xfd, 0x02, 0x0d, 0xea, 0x09, 0xea, 0xfe, 0xfd, 0x25, 0x05,
  0x1b, 0xee, 0x17, 0x28, 0x09, 0x1f, 0x51, 0x05, 0x16, 0xeb, 0x03, 0x21,
  0x1b, 0xfb, 0xf8, 0x1c, 0xf2, 0xe4, 0x14, 0x0b, 0xf2, 0xec, 0xf6, 0xf1,
  0x14, 0xef, 0x0f, 0x08, 0xfe, 0x23, 0xe7, 0x0e, 0x0e, 0xf5, 0x04, 0x1e,
  0xf2, 0x03, 0x36, 0x04, 0x12, 0xda, 0x18, 0x24, 0x22, 0x13, 0x0d, 0x14,
  0xf8, 0xec, 0x13, 0x0c, 0x0e, 0xf4, 0xf7, 0xea, 0xfc, 0x03, 0x03, 0xe8,
  0x12, 0x0e, 0x06, 0x0c, 0x22, 0xdb, 0x05, 0x05, 0x1a, 0xf8, 0x2d, 0xf4,
  0x05, 0xf1, 0x0c, 0x1a, 0x04, 0x1e, 0x1a, 0x12, 0xde, 0xde, 0x07, 0x1d,
  0x0b, 0xf6, 0xf2, 0xf6, 0x01, 0xe6, 0x1c, 0x0c, 0x11, 0x28, 0x17, 0xfc,
  0x00, 0xc5, 0x23, 0x0d, 0x12, 0x17, 0x30, 0xf2, 0x19, 0xfa, 0x26, 0x1e,
  0x13, 0x02, 0x0c, 0x19, 0xe7, 0xd2, 0x1e, 0x24, 0xf8, 0xe7, 0xf7, 0xf3,
  0x13, 0xf0, 0x1d, 0xf3, 0x13, 0x0f, 0xe0, 0x01, 0xfc, 0xb6, 0x1b, 0x08,
  0x15, 0x1a, 0x5a, 0x10, 0x17, 0xcf, 0x27, 0x28, 0x13, 0xff, 0x08, 0x1d,
  0xe9, 0xf6, 0x17, 0x1b, 0x01, 0xf1, 0xeb, 0xe8, 0xee, 0x02, 0x03, 0xea,
  0x0c, 0x10, 0x12, 0x0a, 0x03, 0xf1, 0xfa, 0x0b, 0xfe, 0x16, 0x35, 0xf8,
  0x0c, 0xe9, 0x20, 0x16, 0x17, 0x0f, 0x34, 0x1d, 0x08, 0xdf, 0x31, 0x01,
  0xfe, 0xf6, 0xf4, 0x01, 0xf9, 0xec, 0x05, 0x03, 0x0e, 0x04, 0x25, 0x07,
  0x0f, 0xe5, 0x1b, 0x07, 0x1c, 0x20, 0x23, 0x18, 0x1f, 0xf3, 0x0e, 0x14,
  0x02, 0x13, 0x10, 0x2a, 0xe8, 0xcf, 0x05, 0x12, 0xfb, 0xf9, 0xef, 0x06,
  0xf9, 0x00, 0x01, 0xf1, 0x0d, 0x0a, 0x4c, 0x04, 0x0b, 0xd0, 0x19, 0x0d,
  0xf6, 0x02, 0x3b, 0xf4, 0x1e, 0xed, 0x23, 0x17, 0x1b, 0x07, 0x03, 0x16,
  0xfd, 0xdd, 0x10, 0x18, 0xfe, 0xf8, 0x06, 0xf9, 0xed, 0x03, 0x14, 0x09,
  0xfe, 0x27, 0x0b, 0x13, 0x12, 0xd2, 0x16, 0x1a, 0x07, 0x0f, 0x48, 0xf8,
  0x1e, 0xf2, 0x19, 0x0b, 0x25, 0x1b, 0x08, 0x27, 0xf5, 0xda, 0xff, 0x0c,
  0xf3, 0xf3, 0xe8, 0xf8, 0xfc, 0x05, 0x05, 0xed, 0x08, 0x09, 0xf4, 0x04,
  0xf9, 0x14, 0xed, 0xfc, 0x03, 0xe9, 0xfa, 0xfe, 0x06, 0x03, 0x13, 0x08,
  0xf5, 0x0e, 0xfd, 0x0c, 0xe9, 0x11, 0xe8, 0xf7, 0xf4, 0xf2, 0x0b, 0x02,
  0x13, 0xeb, 0x03, 0x14, 0x0a, 0xfa, 0xf1, 0xef, 0xf9, 0xff, 0xe8, 0x08,
  0xfd, 0xf4, 0x0c, 0x11, 0xef, 0x15, 0xf1, 0xfd, 0xeb, 0xff, 0x14, 0xfb,
  0xf1, 0x13, 0x05, 0x01, 0xf6, 0xf8, 0xf8, 0x12, 0x02, 0xf7, 0xf5, 0xf4,
  0x09, 0xff, 0xef, 0xfe, 0x0c, 0x12, 0xe9, 0xe7, 0x0d, 0x0f, 0xe9, 0x01,
  0x14, 0xfc, 0x0a, 0xf5, 0xf6, 0xfe, 0xf7, 0xe9, 0x0e, 0xe9, 0x02, 0x03,
  0x13, 0x05, 0x0a, 0xe8, 0x02, 0xed, 0xe8, 0x01, 0xef, 0xf5, 0xf6, 0x0d,
  0xf1, 0xe9, 0xff, 0x06, 0xe7, 0x01, 0x12, 0xfa, 0xf1, 0x16, 0x12, 0x0f,
  0x14, 0xf6, 0xe8, 0xec, 0x12, 0xf0, 0xf6, 0xea, 0xf5, 0xf0, 0xf4, 0xe9,
  0xf2, 0xf7, 0xfc, 0x0f, 0xfb, 0xe9, 0x05, 0x0a, 0x01, 0xef, 0x0b, 0xfe,
  0x12, 0x0e, 0x0d, 0x0c, 0xea, 0xee, 0x0e, 0xea, 0x0d, 0xea, 0xe9, 0xf9,
  0x11, 0xf0, 0x0f, 0xff, 0xea, 0xfd, 0x0f, 0xf4, 0x08, 0x07, 0xeb, 0x06,
  0xe7, 0xf4, 0xe9, 0x0f, 0xf8, 0x0c, 0xed, 0x12, 0xf0, 0xec, 0xfd, 0xe9,
  0xf3, 0xff, 0x05, 0x12, 0x0f, 0x11, 0xf9, 0xf6, 0x03, 0xee, 0xf3, 0x02,
  0xf5, 0xea, 0x00, 0x03, 0xeb, 0x0c, 0xf5, 0xeb, 0xec, 0xf6, 0x03, 0x10,
  0x14, 0x0f, 0x0b, 0xf5, 0xf4, 0xf5, 0xea, 0xee, 0x05, 0x01, 0xf1, 0xfd,
  0x10, 0xeb, 0x0d, 0x0c, 0xee, 0x12, 0xf4, 0x09, 0x08, 0x15, 0x0e, 0xeb,
  0x0c, 0xfe, 0xfd, 0x09, 0x0d, 0xfc, 0xeb, 0x02, 0x09, 0x03, 0x00, 0x10,
  0x0c, 0x05, 0x11, 0xf6, 0xe7, 0xf8, 0xff, 0xf3, 0xf2, 0x0e, 0xf8, 0xee,
  0x0d, 0xf9, 0xff, 0xf2, 0xf0, 0xfe, 0x08, 0xfe, 0xef, 0x08, 0xfe, 0xec,
  0x0e, 0x08, 0x0e, 0xfd, 0x0e, 0xee, 0x0d, 0xf7, 0xe8, 0xee, 0xee, 0x05,
  0x02, 0x05, 0xfb, 0xe9, 0x0a, 0x10, 0x0b, 0x03, 0x0e, 0x0e, 0xfa, 0x12,
  0xf2, 0xf4, 0x13, 0xea, 0x0d, 0xf5, 0x0c, 0x08, 0x0e, 0x0d, 0xe9, 0x02,
  0xfb, 0xf4, 0xed, 0xeb, 0x06, 0x14, 0xeb, 0x12, 0xf0, 0x11, 0xf5, 0x0a,
  0x0c, 0x03, 0xf8, 0xfa, 0x07, 0x09, 0x0f, 0x06, 0x02, 0xf5, 0xe8, 0x09,
  0x08, 0x00, 0xf6, 0xef, 0xda, 0xfc, 0xff, 0xff, 0x00, 0x00, 0x00, 0x09,
  0x10, 0x00, 0x00, 0x00, 0x06, 0x00, 0x00, 0x00, 0x14, 0x00, 0x00, 0x00,
  0x2c, 0x00, 0x00, 0x00, 0x02, 0x00, 0x00, 0x00, 0x04, 0x00, 0x00, 0x00,
  0x40, 0x01, 0x00, 0x00, 0x17, 0x00, 0x00, 0x00, 0x73, 0x65, 0x71, 0x75,
  0x65, 0x6e, 0x74, 0x69, 0x61, 0x6c, 0x2f, 0x64, 0x65, 0x6e, 0x73, 0x65,
  0x2f, 0x4d, 0x61, 0x74, 0x4d, 0x75, 0x6c, 0x00, 0x64, 0xfd, 0xff, 0xff,
  0x08, 0x00, 0x00, 0x00, 0x0c, 0x00, 0x00, 0x00, 0x01, 0x00, 0x00, 0x00,
  0xd4, 0x3a, 0xc1, 0x3b, 0x01, 0x00, 0x00, 0x00, 0x00, 0x00, 0x00, 0x00,
  0x00, 0x00, 0x00, 0x00, 0x56, 0xfd, 0xff, 0xff, 0x04, 0x00, 0x00, 0x00,
  0x20, 0x00, 0x00, 0x00, 0xd5, 0x00, 0x00, 0x00, 0xa2, 0x00, 0x00, 0x00,
  0x5b, 0x00, 0x00, 0x00, 0xc0, 0x00, 0x00, 0x00, 0xb7, 0x00, 0x00, 0x00,
  0xdf, 0xff, 0xff, 0xff, 0xf0, 0x00, 0x00, 0x00, 0xd8, 0x00, 0x00, 0x00,
  0x66, 0xfd, 0xff, 0xff, 0x00, 0x00, 0x00, 0x02, 0x10, 0x00, 0x00, 0x00,
  0x05, 0x00, 0x00, 0x00, 0x10, 0x00, 0x00, 0x00, 0x1c, 0x00, 0x00, 0x00,
  0x01, 0x00, 0x00, 0x00, 0x08, 0x00, 0x00, 0x00, 0x0b, 0x00, 0x00, 0x00,
  0x63, 0x6f, 0x6e, 0x76, 0x32, 0x64, 0x2f, 0x62, 0x69, 0x61, 0x73, 0x00,
  0xe0, 0xfd, 0xff, 0xff, 0x08, 0x00, 0x00, 0x00, 0x28, 0x00, 0x00, 0x00,
  0x08, 0x00, 0x00, 0x00, 0x3e, 0x63, 0xc9, 0x39, 0x3f, 0xf8, 0x0d, 0x3a,
  0xa1, 0xca, 0x03, 0x3a, 0xda, 0x82, 0xb0, 0x39, 0x94, 0xf5, 0x04, 0x3a,
  0x39, 0xc6, 0xc4, 0x39, 0xd2, 0x3d, 0xc5, 0x39, 0x25, 0x24, 0xcd, 0x39,
  0x08, 0x00, 0x00, 0x00, 0x00, 0x00, 0x00, 0x00, 0x00, 0x00, 0x00, 0x00,
  0x00, 0x00, 0x00, 0x00, 0x00, 0x00, 0x00, 0x00, 0x00, 0x00, 0x00, 0x00,
  0x00, 0x00, 0x00, 0x00, 0x00, 0x00, 0x00, 0x00, 0x00, 0x00, 0x00, 0x00,
  0x00, 0x00, 0x00, 0x00, 0x00, 0x00, 0x00, 0x00, 0x00, 0x00, 0x00, 0x00,
  0x00, 0x00, 0x00, 0x00, 0x00, 0x00, 0x00, 0x00, 0x00, 0x00, 0x00, 0x00,
  0x00, 0x00, 0x00, 0x00, 0x00, 0x00, 0x00, 0x00, 0x26, 0xfe, 0xff, 0xff,
  0x04, 0x00, 0x00, 0x00, 0x60, 0x00, 0x00, 0x00, 0x02, 0x36, 0x63, 0xe3,
  0x35, 0x2b, 0x81, 0x49, 0x11, 0x9a, 0x41, 0x1d, 0x05, 0x12, 0xd6, 0xf9,
  0x25, 0xa4, 0x05, 0x25, 0x81, 0x0d, 0x05, 0x9e, 0x04, 0xc6, 0xd5, 0x18,
  0x91, 0xd2, 0xf1, 0x81, 0xc6, 0xee, 0xb2, 0xef, 0x81, 0x46, 0x3c, 0x85,
  0x07, 0x47, 0xb0, 0x4c, 0x40, 0xaa, 0x5e, 0x37, 0x2a, 0xe0, 0xf9, 0xf2,
  0xd8, 0x27, 0x7f, 0x16, 0xfe, 0x20, 0xf7, 0x0c, 0xc6, 0x3f, 0x74, 0xe4,
  0x00, 0x54, 0x2b, 0x12, 0xb7, 0x35, 0xb7, 0x81, 0xda, 0x93, 0xcf, 0x44,
  0xe6, 0x15, 0x9b, 0x4a, 0x9a, 0x67, 0x81, 0xeb, 0xf0, 0xca, 0x8f, 0x0b,
  0xb7, 0x81, 0x50, 0x34, 0xfa, 0x7d, 0xb4, 0x9d, 0x76, 0xfe, 0xff, 0xff,
  0x00, 0x00, 0x00, 0x09, 0x10, 0x00, 0x00, 0x00, 0x04, 0x00, 0x00, 0x00,
  0x1c, 0x00, 0x00, 0x00, 0x74, 0x00, 0x00, 0x00, 0x04, 0x00, 0x00, 0x00,
  0x08, 0x00, 0x00, 0x00, 0x04, 0x00, 0x00, 0x00, 0x03, 0x00, 0x00, 0x00,
  0x01, 0x00, 0x00, 0x00, 0x55, 0x00, 0x00, 0x00, 0x73, 0x65, 0x71, 0x75,
  0x65, 0x6e, 0x74, 0x69, 0x61, 0x6c, 0x2f, 0x63, 0x6f, 0x6e, 0x76, 0x32,
  0x64, 0x2f, 0x52, 0x65, 0x6c, 0x75, 0x3b, 0x73, 0x65, 0x71, 0x75, 0x65,
  0x6e, 0x74, 0x69, 0x61, 0x6c, 0x2f, 0x63, 0x6f, 0x6e, 0x76, 0x32, 0x64,
  0x2f, 0x42, 0x69, 0x61, 0x73, 0x41, 0x64, 0x64, 0x3b, 0x73, 0x65, 0x71,
  0x75, 0x65, 0x6e, 0x74, 0x69, 0x61, 0x6c, 0x2f, 0x63, 0x6f, 0x6e, 0x76,
  0x32, 0x64, 0x2f, 0x43, 0x6f, 0x6e, 0x76, 0x32, 0x44, 0x3b, 0x63, 0x6f,
  0x6e, 0x76, 0x32, 0x64, 0x2f, 0x62, 0x69, 0x61, 0x73, 0x00, 0x00, 0x00,
  0x48, 0xff, 0xff, 0xff, 0x08, 0x00, 0x00, 0x00, 0x28, 0x00, 0x00, 0x00,
  0x08, 0x00, 0x00, 0x00, 0x52, 0xd4, 0x0a, 0x39, 0xd2, 0xbc, 0x43, 0x39,
  0x62, 0xb4, 0x35, 0x39, 0x5d, 0x5c, 0xf3, 0x38, 0x8d, 0x50, 0x37, 0x39,
  0x2b, 0xa6, 0x07, 0x39, 0x9d, 0xf8, 0x07, 0x39, 0xbb, 0x6a, 0x0d, 0x39,
  0x08, 0x00, 0x00, 0x00, 0x00, 0x00, 0x00, 0x00, 0x00, 0x00, 0x00, 0x00,
  0x00, 0x00, 0x00, 0x00, 0x00, 0x00, 0x00, 0x00, 0x00, 0x00, 0x00, 0x00,
  0x00, 0x00, 0x00, 0x00, 0x00, 0x00, 0x00, 0x00, 0x00, 0x00, 0x00, 0x00,
  0x00, 0x00, 0x00, 0x00, 0x00, 0x00, 0x00, 0x00, 0x00, 0x00, 0x00, 0x00,
  0x00, 0x00, 0x00, 0x00, 0x00, 0x00, 0x00, 0x00, 0x00, 0x00, 0x00, 0x00,
  0x00, 0x00, 0x00, 0x00, 0x00, 0x00, 0x00, 0x00, 0x8e, 0xff, 0xff, 0xff,
  0x04, 0x00, 0x00, 0x00, 0x01, 0x00, 0x00, 0x00, 0x80, 0x00, 0x00, 0x00,
  0x82, 0xff, 0xff, 0xff, 0x00, 0x00, 0x00, 0x09, 0x10, 0x00, 0x00, 0x00,
  0x03, 0x00, 0x00, 0x00, 0x18, 0x00, 0x00, 0x00, 0x2c, 0x00, 0x00, 0x00,
  0x03, 0x00, 0x00, 0x00, 0x01, 0x00, 0x00, 0x00, 0x01, 0x00, 0x00, 0x00,
  0x01, 0x00, 0x00, 0x00, 0x05, 0x00, 0x00, 0x00, 0x43, 0x6f, 0x6e, 0x73,
  0x74, 0x00, 0x00, 0x00, 0x0c, 0x00, 0x0c, 0x00, 0x00, 0x00, 0x00, 0x00,
  0x04, 0x00, 0x08, 0x00, 0x0c, 0x00, 0x00, 0x00, 0x08, 0x00, 0x00, 0x00,
  0x0c, 0x00, 0x00, 0x00, 0x01, 0x00, 0x00, 0x00, 0xb9, 0x5f, 0x05, 0x3b,
  0x01, 0x00, 0x00, 0x00, 0x7f, 0x00, 0x00, 0x00, 0x00, 0x00, 0x00, 0x00,
  0x00, 0x00, 0x06, 0x00, 0x08, 0x00, 0x04, 0x00, 0x06, 0x00, 0x00, 0x00,
  0x04, 0x00, 0x00, 0x00, 0x08, 0x00, 0x00, 0x00, 0xff, 0xff, 0xff, 0xff,
  0x40, 0x01, 0x00, 0x00, 0x00, 0x00, 0x0e, 0x00, 0x18, 0x00, 0x08, 0x00,
  0x07, 0x00, 0x0c, 0x00, 0x10, 0x00, 0x14, 0x00, 0x0e, 0x00, 0x00, 0x00,
  0x00, 0x00, 0x00, 0x02, 0x10, 0x00, 0x00, 0x00, 0x02, 0x00, 0x00, 0x00,
  0x10, 0x00, 0x00, 0x00, 0x2c, 0x00, 0x00, 0x00, 0x01, 0x00, 0x00, 0x00,
  0x02, 0x00, 0x00, 0x00, 0x18, 0x00, 0x00, 0x00, 0x73, 0x65, 0x71, 0x75,
  0x65, 0x6e, 0x74, 0x69, 0x61, 0x6c, 0x2f, 0x66, 0x6c, 0x61, 0x74, 0x74,
  0x65, 0x6e, 0x2f, 0x43, 0x6f, 0x6e, 0x73, 0x74, 0x00, 0x00, 0x00, 0x00,
  0x84, 0xff, 0xff, 0xff, 0x14, 0x00, 0x18, 0x00, 0x04, 0x00, 0x00, 0x00,
  0x08, 0x00, 0x0c, 0x00, 0x10, 0x00, 0x00, 0x00, 0x00, 0x00, 0x14, 0x00,
  0x14, 0x00, 0x00, 0x00, 0x14, 0x00, 0x00, 0x00, 0x01, 0x00, 0x00, 0x00,
  0x20, 0x00, 0x00, 0x00, 0x50, 0x00, 0x00, 0x00, 0x38, 0x00, 0x00, 0x00,
  0x04, 0x00, 0x00, 0x00, 0x01, 0x00, 0x00, 0x00, 0x20, 0x00, 0x00, 0x00,
  0x0d, 0x00, 0x00, 0x00, 0x01, 0x00, 0x00, 0x00, 0x19, 0x00, 0x00, 0x00,
  0x73, 0x65, 0x72, 0x76, 0x69, 0x6e, 0x67, 0x5f, 0x64, 0x65, 0x66, 0x61,
  0x75, 0x6c, 0x74, 0x5f, 0x69, 0x6e, 0x70, 0x75, 0x74, 0x5f, 0x31, 0x3a,
  0x30, 0x00, 0x00, 0x00, 0x04, 0x00, 0x00, 0x00, 0xff, 0xff, 0xff, 0xff,
  0x20, 0x00, 0x00, 0x00, 0x0d, 0x00, 0x00, 0x00, 0x01, 0x00, 0x00, 0x00,
  0xfc, 0xff, 0xff, 0xff, 0x04, 0x00, 0x04, 0x00, 0x04, 0x00, 0x00, 0x00
};
unsigned int model_quantized_tflite_len = 5136;
